0000000110100100
0000000100100100
1111111111001011
1111110110001101
0000000101111100
0000000011010011
0000001111001001
0000001001011001
0000010000001110
0000001011001110
0000000101111011
0000001010101100
1111111111010001
1111111101100001
1111111111001001
0000000011111001
0000000010001100
1111111101000111
1111111000001010
0000000011000111
0000000001010110
0000000110110100
0000000010100000
0000000100011111
1111111000111111
0000000001101001
1111111111101001
0000001110111111
1111111011000010
1111111011011001
1111111100011100
0000000110001000
1111111111000110
1111111010111000
0000001110100110
0000000111010111
0000001011110001
1111110110110110
0000001001000010
0000000100001111
0000001001000001
1111111010100101
1111111101011101
1111111000101100
1111111101110111
0000001011110101
1111111101100111
0000001100011011
0000010011000011
0000000010010100
1111110111000111
0000000011110100
0000000101111100
0000000001010110
0000001111101010
0000000010001011
0000001010101100
0000000011111010
0000000001100110
1111111010001001
0000001111110000
1111111111001011
1111110110001011
1111111110100001
